// TFLite model converted to C array
#include <stdint.h>

const unsigned char model_tflite[] = {
  28, 0, 0, 0, 84, 70, 76, 51, 20, 0, 32, 0,
  28, 0, 24, 0, 20, 0, 16, 0, 12, 0, 0, 0,
  8, 0, 4, 0, 20, 0, 0, 0, 28, 0, 0, 0,
  152, 0, 0, 0, 24, 1, 0, 0, 108, 2, 0, 0,
  124, 2, 0, 0, 120, 7, 0, 0, 3, 0, 0, 0,
  1, 0, 0, 0, 16, 0, 0, 0, 0, 0, 10, 0,
  16, 0, 12, 0, 8, 0, 4, 0, 10, 0, 0, 0,
  12, 0, 0, 0, 28, 0, 0, 0, 60, 0, 0, 0,
  15, 0, 0, 0, 115, 101, 114, 118, 105, 110, 103, 95,
  100, 101, 102, 97, 117, 108, 116, 0, 1, 0, 0, 0,
  4, 0, 0, 0, 104, 255, 255, 255, 6, 0, 0, 0,
  4, 0, 0, 0, 8, 0, 0, 0, 111, 117, 116, 112,
  117, 116, 95, 48, 0, 0, 0, 0, 1, 0, 0, 0,
  4, 0, 0, 0, 38, 254, 255, 255, 4, 0, 0, 0,
  12, 0, 0, 0, 107, 101, 114, 97, 115, 95, 116, 101,
  110, 115, 111, 114, 0, 0, 0, 0, 3, 0, 0, 0,
  92, 0, 0, 0, 44, 0, 0, 0, 4, 0, 0, 0,
  184, 255, 255, 255, 10, 0, 0, 0, 4, 0, 0, 0,
  19, 0, 0, 0, 67, 79, 78, 86, 69, 82, 83, 73,
  79, 78, 95, 77, 69, 84, 65, 68, 65, 84, 65, 0,
  220, 255, 255, 255, 9, 0, 0, 0, 4, 0, 0, 0,
  19, 0, 0, 0, 109, 105, 110, 95, 114, 117, 110, 116,
  105, 109, 101, 95, 118, 101, 114, 115, 105, 111, 110, 0,
  8, 0, 12, 0, 8, 0, 4, 0, 8, 0, 0, 0,
  8, 0, 0, 0, 4, 0, 0, 0, 19, 0, 0, 0,
  109, 105, 110, 95, 114, 117, 110, 116, 105, 109, 101, 95,
  118, 101, 114, 115, 105, 111, 110, 0, 11, 0, 0, 0,
  80, 1, 0, 0, 72, 1, 0, 0, 52, 1, 0, 0,
  20, 1, 0, 0, 228, 0, 0, 0, 196, 0, 0, 0,
  188, 0, 0, 0, 180, 0, 0, 0, 148, 0, 0, 0,
  116, 0, 0, 0, 4, 0, 0, 0, 246, 254, 255, 255,
  4, 0, 0, 0, 96, 0, 0, 0, 12, 0, 0, 0,
  8, 0, 14, 0, 8, 0, 4, 0, 8, 0, 0, 0,
  16, 0, 0, 0, 40, 0, 0, 0, 0, 0, 6, 0,
  8, 0, 4, 0, 6, 0, 0, 0, 4, 0, 0, 0,
  1, 0, 0, 0, 235, 3, 0, 0, 12, 0, 24, 0,
  20, 0, 16, 0, 12, 0, 4, 0, 12, 0, 0, 0,
  51, 188, 67, 186, 58, 116, 25, 36, 2, 0, 0, 0,
  2, 0, 0, 0, 4, 0, 0, 0, 6, 0, 0, 0,
  50, 46, 49, 57, 46, 48, 0, 0, 98, 255, 255, 255,
  4, 0, 0, 0, 16, 0, 0, 0, 0, 0, 0, 0,
  0, 0, 0, 0, 0, 0, 0, 0, 0, 0, 0, 0,
  126, 255, 255, 255, 4, 0, 0, 0, 16, 0, 0, 0,
  49, 46, 49, 52, 46, 48, 0, 0, 0, 0, 0, 0,
  0, 0, 0, 0, 12, 255, 255, 255, 16, 255, 255, 255,
  162, 255, 255, 255, 4, 0, 0, 0, 16, 0, 0, 0,
  171, 127, 127, 215, 127, 125, 129, 240, 127, 7, 127, 101,
  129, 41, 129, 92, 190, 255, 255, 255, 4, 0, 0, 0,
  32, 0, 0, 0, 127, 243, 255, 255, 152, 5, 0, 0,
  54, 238, 255, 255, 55, 17, 0, 0, 202, 233, 255, 255,
  102, 184, 255, 255, 100, 251, 255, 255, 83, 237, 255, 255,
  234, 255, 255, 255, 4, 0, 0, 0, 8, 0, 0, 0,
  4, 62, 13, 129, 141, 168, 202, 215, 0, 0, 6, 0,
  8, 0, 4, 0, 6, 0, 0, 0, 4, 0, 0, 0,
  4, 0, 0, 0, 14, 20, 0, 0, 136, 255, 255, 255,
  140, 255, 255, 255, 15, 0, 0, 0, 77, 76, 73, 82,
  32, 67, 111, 110, 118, 101, 114, 116, 101, 100, 46, 0,
  1, 0, 0, 0, 20, 0, 0, 0, 0, 0, 14, 0,
  24, 0, 20, 0, 16, 0, 12, 0, 8, 0, 4, 0,
  14, 0, 0, 0, 20, 0, 0, 0, 28, 0, 0, 0,
  164, 0, 0, 0, 168, 0, 0, 0, 172, 0, 0, 0,
  4, 0, 0, 0, 109, 97, 105, 110, 0, 0, 0, 0,
  2, 0, 0, 0, 76, 0, 0, 0, 4, 0, 0, 0,
  202, 255, 255, 255, 20, 0, 0, 0, 0, 0, 0, 8,
  16, 0, 0, 0, 20, 0, 0, 0, 4, 0, 4, 0,
  4, 0, 0, 0, 1, 0, 0, 0, 6, 0, 0, 0,
  3, 0, 0, 0, 5, 0, 0, 0, 2, 0, 0, 0,
  1, 0, 0, 0, 0, 0, 14, 0, 22, 0, 0, 0,
  16, 0, 12, 0, 11, 0, 4, 0, 14, 0, 0, 0,
  24, 0, 0, 0, 0, 0, 0, 8, 24, 0, 0, 0,
  28, 0, 0, 0, 0, 0, 6, 0, 8, 0, 7, 0,
  6, 0, 0, 0, 0, 0, 0, 1, 1, 0, 0, 0,
  5, 0, 0, 0, 3, 0, 0, 0, 0, 0, 0, 0,
  4, 0, 0, 0, 3, 0, 0, 0, 1, 0, 0, 0,
  6, 0, 0, 0, 1, 0, 0, 0, 0, 0, 0, 0,
  7, 0, 0, 0, 152, 3, 0, 0, 32, 3, 0, 0,
  164, 2, 0, 0, 240, 1, 0, 0, 52, 1, 0, 0,
  128, 0, 0, 0, 4, 0, 0, 0, 154, 252, 255, 255,
  0, 0, 0, 1, 24, 0, 0, 0, 32, 0, 0, 0,
  60, 0, 0, 0, 7, 0, 0, 0, 0, 0, 0, 9,
  80, 0, 0, 0, 2, 0, 0, 0, 255, 255, 255, 255,
  1, 0, 0, 0, 132, 252, 255, 255, 8, 0, 0, 0,
  16, 0, 0, 0, 1, 0, 0, 0, 77, 0, 0, 0,
  0, 0, 0, 0, 1, 0, 0, 0, 210, 181, 89, 60,
  27, 0, 0, 0, 83, 116, 97, 116, 101, 102, 117, 108,
  80, 97, 114, 116, 105, 116, 105, 111, 110, 101, 100, 67,
  97, 108, 108, 95, 49, 58, 48, 0, 2, 0, 0, 0,
  1, 0, 0, 0, 1, 0, 0, 0, 18, 253, 255, 255,
  0, 0, 0, 1, 24, 0, 0, 0, 32, 0, 0, 0,
  60, 0, 0, 0, 6, 0, 0, 0, 0, 0, 0, 9,
  136, 0, 0, 0, 2, 0, 0, 0, 255, 255, 255, 255,
  8, 0, 0, 0, 252, 252, 255, 255, 8, 0, 0, 0,
  16, 0, 0, 0, 1, 0, 0, 0, 128, 255, 255, 255,
  255, 255, 255, 255, 1, 0, 0, 0, 234, 41, 153, 60,
  82, 0, 0, 0, 115, 101, 113, 117, 101, 110, 116, 105,
  97, 108, 95, 49, 47, 100, 101, 110, 115, 101, 95, 49,
  47, 77, 97, 116, 77, 117, 108, 59, 115, 101, 113, 117,
  101, 110, 116, 105, 97, 108, 95, 49, 47, 100, 101, 110,
  115, 101, 95, 49, 47, 82, 101, 108, 117, 59, 115, 101,
  113, 117, 101, 110, 116, 105, 97, 108, 95, 49, 47, 100,
  101, 110, 115, 101, 95, 49, 47, 66, 105, 97, 115, 65,
  100, 100, 0, 0, 2, 0, 0, 0, 1, 0, 0, 0,
  8, 0, 0, 0, 54, 254, 255, 255, 0, 0, 0, 1,
  20, 0, 0, 0, 136, 0, 0, 0, 5, 0, 0, 0,
  0, 0, 0, 9, 148, 0, 0, 0, 156, 253, 255, 255,
  8, 0, 0, 0, 76, 0, 0, 0, 8, 0, 0, 0,
  0, 0, 0, 0, 0, 0, 0, 0, 0, 0, 0, 0,
  0, 0, 0, 0, 0, 0, 0, 0, 0, 0, 0, 0,
  0, 0, 0, 0, 0, 0, 0, 0, 0, 0, 0, 0,
  0, 0, 0, 0, 0, 0, 0, 0, 0, 0, 0, 0,
  0, 0, 0, 0, 0, 0, 0, 0, 0, 0, 0, 0,
  0, 0, 0, 0, 0, 0, 0, 0, 8, 0, 0, 0,
  67, 81, 120, 59, 121, 85, 4, 60, 175, 193, 108, 59,
  17, 155, 46, 60, 91, 198, 64, 59, 151, 237, 93, 58,
  82, 221, 228, 59, 119, 97, 68, 59, 18, 0, 0, 0,
  116, 102, 108, 46, 112, 115, 101, 117, 100, 111, 95, 113,
  99, 111, 110, 115, 116, 51, 0, 0, 2, 0, 0, 0,
  8, 0, 0, 0, 2, 0, 0, 0, 238, 254, 255, 255,
  0, 0, 0, 1, 20, 0, 0, 0, 132, 0, 0, 0,
  4, 0, 0, 0, 0, 0, 0, 2, 144, 0, 0, 0,
  84, 254, 255, 255, 8, 0, 0, 0, 72, 0, 0, 0,
  8, 0, 0, 0, 0, 0, 0, 0, 0, 0, 0, 0,
  0, 0, 0, 0, 0, 0, 0, 0, 0, 0, 0, 0,
  0, 0, 0, 0, 0, 0, 0, 0, 0, 0, 0, 0,
  0, 0, 0, 0, 0, 0, 0, 0, 0, 0, 0, 0,
  0, 0, 0, 0, 0, 0, 0, 0, 0, 0, 0, 0,
  0, 0, 0, 0, 0, 0, 0, 0, 8, 0, 0, 0,
  155, 72, 148, 56, 26, 12, 30, 57, 73, 97, 141, 56,
  104, 136, 80, 57, 121, 59, 102, 56, 111, 134, 132, 55,
  209, 170, 8, 57, 243, 137, 106, 56, 18, 0, 0, 0,
  116, 102, 108, 46, 112, 115, 101, 117, 100, 111, 95, 113,
  99, 111, 110, 115, 116, 50, 0, 0, 1, 0, 0, 0,
  8, 0, 0, 0, 158, 255, 255, 255, 0, 0, 0, 1,
  20, 0, 0, 0, 48, 0, 0, 0, 3, 0, 0, 0,
  0, 0, 0, 9, 60, 0, 0, 0, 4, 255, 255, 255,
  8, 0, 0, 0, 16, 0, 0, 0, 1, 0, 0, 0,
  0, 0, 0, 0, 0, 0, 0, 0, 1, 0, 0, 0,
  194, 168, 140, 59, 18, 0, 0, 0, 116, 102, 108, 46,
  112, 115, 101, 117, 100, 111, 95, 113, 99, 111, 110, 115,
  116, 49, 0, 0, 2, 0, 0, 0, 1, 0, 0, 0,
  8, 0, 0, 0, 0, 0, 22, 0, 28, 0, 24, 0,
  23, 0, 16, 0, 12, 0, 8, 0, 0, 0, 0, 0,
  0, 0, 7, 0, 22, 0, 0, 0, 0, 0, 0, 1,
  20, 0, 0, 0, 48, 0, 0, 0, 2, 0, 0, 0,
  0, 0, 0, 2, 60, 0, 0, 0, 124, 255, 255, 255,
  8, 0, 0, 0, 16, 0, 0, 0, 1, 0, 0, 0,
  0, 0, 0, 0, 0, 0, 0, 0, 1, 0, 0, 0,
  199, 79, 168, 56, 17, 0, 0, 0, 116, 102, 108, 46,
  112, 115, 101, 117, 100, 111, 95, 113, 99, 111, 110, 115,
  116, 0, 0, 0, 1, 0, 0, 0, 1, 0, 0, 0,
  0, 0, 22, 0, 32, 0, 28, 0, 27, 0, 20, 0,
  16, 0, 12, 0, 0, 0, 0, 0, 8, 0, 7, 0,
  22, 0, 0, 0, 0, 0, 0, 1, 24, 0, 0, 0,
  44, 0, 0, 0, 76, 0, 0, 0, 1, 0, 0, 0,
  0, 0, 0, 9, 100, 0, 0, 0, 2, 0, 0, 0,
  255, 255, 255, 255, 2, 0, 0, 0, 12, 0, 12, 0,
  0, 0, 0, 0, 8, 0, 4, 0, 12, 0, 0, 0,
  8, 0, 0, 0, 20, 0, 0, 0, 1, 0, 0, 0,
  18, 0, 0, 0, 0, 0, 0, 0, 0, 0, 0, 0,
  1, 0, 0, 0, 13, 223, 152, 60, 30, 0, 0, 0,
  115, 101, 114, 118, 105, 110, 103, 95, 100, 101, 102, 97,
  117, 108, 116, 95, 107, 101, 114, 97, 115, 95, 116, 101,
  110, 115, 111, 114, 58, 48, 0, 0, 2, 0, 0, 0,
  1, 0, 0, 0, 2, 0, 0, 0, 1, 0, 0, 0,
  16, 0, 0, 0, 12, 0, 16, 0, 15, 0, 0, 0,
  8, 0, 4, 0, 12, 0, 0, 0, 9, 0, 0, 0,
  4, 0, 0, 0, 0, 0, 0, 9 
};

const unsigned int model_tflite_len = 2000;
